// $Id$
/*
 * SID Drum Models
 *
 * ==========================================================================
 *
 *  Copyright (C) 2009 Thorsten Klose (tk@midibox.org)
 *  Licensed for personal non-commercial use only.
 *  All other rights reserved.
 * 
 * ==========================================================================
 */

/////////////////////////////////////////////////////////////////////////////
// Include files
/////////////////////////////////////////////////////////////////////////////

#include <mios32.h>
#include "sid_dmodel.h"


/////////////////////////////////////////////////////////////////////////////
// Wavetables
/////////////////////////////////////////////////////////////////////////////

const u8 sid_dmodel_WT_BD1[] = {
  0x3c | 0x80, 0x01, // Note/Wave Step #1
  0x3a | 0x00, 0x01, // Note/Wave Step #1
  0x38 | 0x00, 0x01, // Note/Wave Step #2
  0x34 | 0x00, 0x01, // Note/Wave Step #3
  0x30 | 0x00, 0x01, // Note/Wave Step #4
  0x2c | 0x00, 0x01, // Note/Wave Step #5
  0x28 | 0x00, 0x01, // Note/Wave Step #6
  0x20 | 0x00, 0x01, // Note/Wave Step #7
  0, 0 // End of WT
};

const u8 sid_dmodel_WT_BD2[] = {
  0x6b | 0x80, 0x08, // Note/Wave Step #0
  0x3c | 0x00, 0x04, // Note/Wave Step #1
  0x37 | 0x00, 0x04, // Note/Wave Step #2
  0x32 | 0x00, 0x04, // Note/Wave Step #3
  0x2a | 0x00, 0x04, // Note/Wave Step #4
  0, 0 // End of WT
};

const u8 sid_dmodel_WT_BD3[] = {
  0x48 | 0x80, 0x01, // Note/Wave Step #0
  0x4e | 0x00, 0x08, // Note/Wave Step #1
  0x45 | 0x80, 0x01, // Note/Wave Step #2
  0x35 | 0x80, 0x04, // Note/Wave Step #3
  0x4e | 0x00, 0x08, // Note/Wave Step #4
  0x40 | 0x00, 0x08, // Note/Wave Step #5
  0x47 | 0x00, 0x08, // Note/Wave Step #6
  0x3b | 0x00, 0x08, // Note/Wave Step #7
  0, 0 // End of WT
};

const u8 sid_dmodel_WT_SD1[] = {
  0x6b | 0x00, 0x08, // Note/Wave Step #0
  0x3c | 0x80, 0x04, // Note/Wave Step #1
  0x6b | 0x00, 0x08, // Note/Wave Step #2
  0x3b | 0x80, 0x04, // Note/Wave Step #3
  0x6b | 0x00, 0x08, // Note/Wave Step #4
  0, 0 // End of WT
};

const u8 sid_dmodel_WT_SD2[] = {
  0x50 | 0x00, 0x08, // Note/Wave Step #0
  0x3c | 0x80, 0x04, // Note/Wave Step #1
  0x3a | 0x80, 0x04, // Note/Wave Step #2
  0x50 | 0x00, 0x08, // Note/Wave Step #3
  0x51 | 0x00, 0x08, // Note/Wave Step #4
  0x52 | 0x00, 0x08, // Note/Wave Step #5
  0x53 | 0x00, 0x08, // Note/Wave Step #6
  0x54 | 0x00, 0x08, // Note/Wave Step #7
  0x55 | 0x00, 0x08, // Note/Wave Step #8
  0x56 | 0x00, 0x08, // Note/Wave Step #9
  0x57 | 0x00, 0x08, // Note/Wave Step #10
  0, 0 // End of WT
};

const u8 sid_dmodel_WT_SD3[] = {
  0x4b | 0x00, 0x08, // Note/Wave Step #0
  0x3c | 0x80, 0x01, // Note/Wave Step #1
  0, 0 // End of WT
};

const u8 sid_dmodel_WT_HH1[] = {
  0x6c | 0x80, 0x08, // Note/Wave Step #0
  0, 0 // End of WT
};

const u8 sid_dmodel_WT_HH2[] = {
  0x6c | 0x80, 0x08, // Note/Wave Step #0
  0x33 | 0x00, 0x04, // Note/Wave Step #1
  0x6c | 0x80, 0x08, // Note/Wave Step #2
  0, 0 // End of WT
};

const u8 sid_dmodel_WT_TO1[] = {
  0x3c | 0x80, 0x04, // Note/Wave Step #0
  0x3b | 0x00, 0x04, // Note/Wave Step #1
  0x3a | 0x80, 0x04, // Note/Wave Step #2
  0x38 | 0x00, 0x04, // Note/Wave Step #3
  0x37 | 0x80, 0x04, // Note/Wave Step #4
  0x34 | 0x00, 0x04, // Note/Wave Step #5
  0x33 | 0x80, 0x04, // Note/Wave Step #6
  0x31 | 0x00, 0x04, // Note/Wave Step #7
  0x2f | 0x80, 0x04, // Note/Wave Step #8
  0x2d | 0x00, 0x04, // Note/Wave Step #9
  0x2a | 0x80, 0x04, // Note/Wave Step #10
  0x26 | 0x00, 0x04, // Note/Wave Step #11
  0x22 | 0x80, 0x04, // Note/Wave Step #12
  0x1c | 0x00, 0x04, // Note/Wave Step #13
  0x13 | 0x80, 0x04, // Note/Wave Step #14
  0, 0 // End of WT
};

const u8 sid_dmodel_WT_TO2[] = {
  0x3c | 0x80, 0x04, // Note/Wave Step #0
  0x3b | 0x00, 0x01, // Note/Wave Step #1
  0x3a | 0x80, 0x04, // Note/Wave Step #2
  0x38 | 0x00, 0x01, // Note/Wave Step #3
  0x37 | 0x80, 0x04, // Note/Wave Step #4
  0x34 | 0x00, 0x01, // Note/Wave Step #5
  0x33 | 0x80, 0x04, // Note/Wave Step #6
  0x31 | 0x00, 0x01, // Note/Wave Step #7
  0x2f | 0x80, 0x04, // Note/Wave Step #8
  0x2d | 0x00, 0x01, // Note/Wave Step #9
  0x2a | 0x80, 0x04, // Note/Wave Step #10
  0x26 | 0x00, 0x01, // Note/Wave Step #11
  0x22 | 0x80, 0x04, // Note/Wave Step #12
  0x1c | 0x00, 0x01, // Note/Wave Step #13
  0x13 | 0x80, 0x04, // Note/Wave Step #14
  0, 0 // End of WT
};

const u8 sid_dmodel_WT_CLP[] = {
  0x3c | 0x00, 0x08, // Note/Wave Step #0
  0x70 | 0x80, 0x08, // Note/Wave Step #1
  0x30 | 0x00, 0x08, // Note/Wave Step #2
  0x3c | 0x80, 0x08, // Note/Wave Step #3
  0, 0 // End of WT
};

const u8 sid_dmodel_WT_FX1[] = {
  0x3c | 0x80, 0x01, // Note/Wave Step #0
  0, 0 // End of WT
};

const u8 sid_dmodel_WT_FX2[] = {
  0x3c | 0x80, 0x01, // Note/Wave Step #0
  0x30 | 0x00, 0x01, // Note/Wave Step #1
  0x3c | 0x80, 0x01, // Note/Wave Step #2
  0x48 | 0x00, 0x01, // Note/Wave Step #3
  0, 0 // End of WT
};

const u8 sid_dmodel_WT_FX3[] = {
  0x3c | 0x80, 0x41, // Note/Wave Step #0
  0, 0 // End of WT
};

const u8 sid_dmodel_WT_FX4[] = {
  0x3c | 0x80, 0x41, // Note/Wave Step #0
  0x3b | 0x00, 0x41, // Note/Wave Step #1
  0x3a | 0x80, 0x41, // Note/Wave Step #2
  0x38 | 0x00, 0x41, // Note/Wave Step #3
  0x37 | 0x80, 0x41, // Note/Wave Step #4
  0x34 | 0x00, 0x41, // Note/Wave Step #5
  0x33 | 0x80, 0x41, // Note/Wave Step #6
  0x31 | 0x00, 0x41, // Note/Wave Step #7
  0x2f | 0x80, 0x41, // Note/Wave Step #8
  0x2d | 0x00, 0x41, // Note/Wave Step #9
  0x2a | 0x80, 0x41, // Note/Wave Step #10
  0x26 | 0x00, 0x41, // Note/Wave Step #11
  0x22 | 0x80, 0x41, // Note/Wave Step #12
  0x1c | 0x00, 0x41, // Note/Wave Step #13
  0x13 | 0x80, 0x41, // Note/Wave Step #14
  0, 0 // End of WT
};

const u8 sid_dmodel_WT_FX5[] = {
  0x54 | 0x80, 0x04, // Note/Wave Step #0
  0x3b | 0x00, 0x01, // Note/Wave Step #1
  0x60 | 0x80, 0x04, // Note/Wave Step #2
  0x38 | 0x00, 0x01, // Note/Wave Step #3
  0x54 | 0x80, 0x04, // Note/Wave Step #4
  0x34 | 0x00, 0x01, // Note/Wave Step #5
  0x60 | 0x80, 0x04, // Note/Wave Step #6
  0x31 | 0x00, 0x01, // Note/Wave Step #7
  0x54 | 0x80, 0x04, // Note/Wave Step #8
  0x2d | 0x00, 0x01, // Note/Wave Step #9
  0x60 | 0x80, 0x04, // Note/Wave Step #10
  0x26 | 0x00, 0x01, // Note/Wave Step #11
  0x54 | 0x80, 0x04, // Note/Wave Step #12
  0x1c | 0x00, 0x01, // Note/Wave Step #13
  0x60 | 0x80, 0x04, // Note/Wave Step #14
  0, 0 // End of WT
};

const u8 sid_dmodel_WT_FX6[] = {
  0x18 | 0x80, 0x01, // Note/Wave Step #0
  0x24 | 0x00, 0x01, // Note/Wave Step #1
  0x30 | 0x80, 0x01, // Note/Wave Step #2
  0x3c | 0x00, 0x01, // Note/Wave Step #3
  0x48 | 0x80, 0x01, // Note/Wave Step #4
  0x54 | 0x00, 0x01, // Note/Wave Step #5
  0, 0 // End of WT
};

const u8 sid_dmodel_WT_FX7[] = {
  0x18 | 0x80, 0x02, // Note/Wave Step #0
  0x3c | 0x00, 0x02, // Note/Wave Step #1
  0x24 | 0x00, 0x02, // Note/Wave Step #2
  0x3c | 0x00, 0x02, // Note/Wave Step #3
  0x30 | 0x80, 0x02, // Note/Wave Step #4
  0, 0 // End of WT
};

const u8 sid_dmodel_WT_FX8[] = {
  0x70 | 0x80, 0x08, // Note/Wave Step #0
  0x68 | 0x00, 0x08, // Note/Wave Step #1
  0x60 | 0x00, 0x04, // Note/Wave Step #2
  0x58 | 0x80, 0x04, // Note/Wave Step #3
  0x50 | 0x00, 0x08, // Note/Wave Step #4
  0x48 | 0x00, 0x08, // Note/Wave Step #5
  0x40 | 0x80, 0x04, // Note/Wave Step #6
  0x38 | 0x00, 0x08, // Note/Wave Step #7
  0x30 | 0x00, 0x04, // Note/Wave Step #8
  0, 0 // End of WT
};

const u8 sid_dmodel_WT_FX9[] = {
  0x18 | 0x80, 0x04, // Note/Wave Step #0
  0x54 | 0x00, 0x01, // Note/Wave Step #1
  0x24 | 0x00, 0x04, // Note/Wave Step #2
  0x48 | 0x80, 0x01, // Note/Wave Step #3
  0x30 | 0x00, 0x04, // Note/Wave Step #4
  0x3c | 0x00, 0x01, // Note/Wave Step #5
  0x3c | 0x80, 0x04, // Note/Wave Step #6
  0x30 | 0x00, 0x01, // Note/Wave Step #7
  0x48 | 0x00, 0x04, // Note/Wave Step #8
  0x18 | 0x80, 0x01, // Note/Wave Step #9
  0x54 | 0x00, 0x04, // Note/Wave Step #10
  0x24 | 0x00, 0x01, // Note/Wave Step #11
  0x48 | 0x80, 0x04, // Note/Wave Step #12
  0x30 | 0x00, 0x01, // Note/Wave Step #13
  0x3c | 0x00, 0x04, // Note/Wave Step #14
  0x3c | 0x80, 0x01, // Note/Wave Step #15
  0x30 | 0x00, 0x04, // Note/Wave Step #16
  0x48 | 0x00, 0x01, // Note/Wave Step #17
  0, 0 // End of WT
};


/////////////////////////////////////////////////////////////////////////////
// Drum Models
/////////////////////////////////////////////////////////////////////////////

const sid_dmodel_t sid_dmodel[SID_DMODEL_NUM] = {
  // name    type          note  GLng  Wave   PW  Speed  Loop  Wavetable
  { "BD1 ", SID_DMODEL_WT, 0x3c, 0x20, 0x01, 0x80, 0x0a, 0xff, (u8 *)&sid_dmodel_WT_BD1 },
  { "BD2 ", SID_DMODEL_WT, 0x6b, 0x20, 0x08, 0x80, 0x0a, 0xff, (u8 *)&sid_dmodel_WT_BD2 },
  { "BD3 ", SID_DMODEL_WT, 0x48, 0x20, 0x01, 0x80, 0x0a, 0xff, (u8 *)&sid_dmodel_WT_BD3 },
  { "SD1 ", SID_DMODEL_WT, 0x6b, 0x20, 0x08, 0x80, 0x0a, 0xff, (u8 *)&sid_dmodel_WT_SD1 },
  { "SD2 ", SID_DMODEL_WT, 0x50, 0x20, 0x08, 0x80, 0x0a, 0xff, (u8 *)&sid_dmodel_WT_SD2 },
  { "SD3 ", SID_DMODEL_WT, 0x4b, 0x20, 0x08, 0x80, 0x0a, 0x00, (u8 *)&sid_dmodel_WT_SD3 },
  { "HH1 ", SID_DMODEL_WT, 0x6c, 0x20, 0x08, 0x80, 0x0a, 0xff, (u8 *)&sid_dmodel_WT_HH1 },
  { "HH2 ", SID_DMODEL_WT, 0x6c, 0x20, 0x08, 0x80, 0x0a, 0xff, (u8 *)&sid_dmodel_WT_HH2 },
  { "TO1 ", SID_DMODEL_WT, 0x3c, 0x20, 0x04, 0x80, 0x0a, 0xff, (u8 *)&sid_dmodel_WT_TO1 },
  { "TO2 ", SID_DMODEL_WT, 0x3c, 0x20, 0x04, 0x80, 0x0a, 0x0c, (u8 *)&sid_dmodel_WT_TO2 },
  { "CLP ", SID_DMODEL_WT, 0x3c, 0x20, 0x08, 0x80, 0x0a, 0x01, (u8 *)&sid_dmodel_WT_CLP },
  { "FX1 ", SID_DMODEL_WT, 0x3c, 0x20, 0x01, 0x80, 0x0a, 0xff, (u8 *)&sid_dmodel_WT_FX1 },
  { "FX2 ", SID_DMODEL_WT, 0x3c, 0x20, 0x01, 0x80, 0x0a, 0x00, (u8 *)&sid_dmodel_WT_FX2 },
  { "FX3 ", SID_DMODEL_WT, 0x3c, 0x20, 0x41, 0x80, 0x0a, 0xff, (u8 *)&sid_dmodel_WT_FX3 },
  { "FX4 ", SID_DMODEL_WT, 0x3c, 0x20, 0x41, 0x80, 0x0a, 0xff, (u8 *)&sid_dmodel_WT_FX4 },
  { "FX5 ", SID_DMODEL_WT, 0x54, 0x20, 0x04, 0x80, 0x0a, 0x0a, (u8 *)&sid_dmodel_WT_FX5 },
  { "FX6 ", SID_DMODEL_WT, 0x18, 0x20, 0x01, 0x80, 0x0a, 0x00, (u8 *)&sid_dmodel_WT_FX6 },
  { "FX7 ", SID_DMODEL_WT, 0x18, 0x20, 0x02, 0x80, 0x0a, 0x00, (u8 *)&sid_dmodel_WT_FX7 },
  { "FX8 ", SID_DMODEL_WT, 0x70, 0x20, 0x08, 0x80, 0x0a, 0x00, (u8 *)&sid_dmodel_WT_FX8 },
  { "FX9 ", SID_DMODEL_WT, 0x18, 0x20, 0x04, 0x80, 0x0a, 0x00, (u8 *)&sid_dmodel_WT_FX9 },
};
